encog,BasicNetwork,java,3.3.0,1,1449135014403
[BASIC]
[BASIC:PARAMS]
[BASIC:NETWORK]
beginTraining=0
connectionLimit=0
contextTargetOffset=0,0,0
contextTargetSize=0,0,0
endTraining=2
hasContext=f
inputCount=16
layerCounts=2,13,17
layerFeedCounts=1,12,16
layerContextCount=0,0,0
layerIndex=0,2,15
output=0.0253765379,1,0.1817281663,0.6290256532,0.1158698931,-0.320477073,0.2050853798,0.8047479447,-0.6536541118,-0.5092564021,0.8394846539,0.1602189813,0.1345585499,0.7495646107,1,0,0,0,0,1,1,0,0,0,0,0,0,0,0,0,0,1
outputCount=1
weightIndex=0,13,217
weights=-0.0986594372,0.6174741077,0.3064066752,0.6030091871,0.163945479,0.3354378124,0.0997424072,0.2227229681,0.1302608042,0.0911223298,-0.0944700049,0.0901061662,-0.4910742561,0.5505678023,-0.0067085675,0.4469843284,0.4391497494,0.1537044806,0.3011627992,0.3321182256,0.1567421066,0.4278395651,0.755683537,-0.3218093276,-0.3156962885,0.1241466726,-0.680628151,0.0461337176,0.6439518214,-0.2710979812,0.00170465,0.2929035509,0.0508065788,0.2938815387,0.1884831872,0.0388450408,0.1838247712,0.7499067819,0.0320097803,-0.2235170444,-0.2473703055,-0.2311786198,0.3335786258,0.0809083998,0.0576621551,-0.0773870307,0.5124739931,0.4902486374,0.3466019226,0.1968710249,-0.0007048012,0.3319518819,0.0009018643,0.1751280445,0.4705741408,0.2213573384,0.1999377681,0.0362777768,0.2171231638,0.5080516123,0.0061423686,-0.1445960522,0.0763129301,-0.2164610855,0.1382206714,0.0580266327,0.1503708545,0.0547063823,0.0105705992,0.4448327641,0.4429962196,-0.0166973435,-0.0393078131,0.2827463752,0.2419269086,-0.017631908,-0.4312475602,-0.1736568121,-0.0965592339,0.0570347464,-0.7875820609,0.0004669887,0.413470484,0.3693955602,0.5160923742,0.6310541921,0.3020374146,0.4117545469,0.2138139964,-0.1494177329,0.509177093,0.067787603,0.3175519286,-0.3888547116,-0.9927962238,0.2704945587,0.3598574155,-0.7250561142,0.4555087443,0.3604586688,0.1639710137,0.3176486969,0.3952791794,0.7084390787,0.424805209,0.2846985361,-0.0610065634,0.2450972316,-0.6213705126,0.041791125,0.2427468841,1.2588778027,0.1750256802,-0.047269906,0.0082241935,0.162937973,0.1367615232,0.3917562964,-1.1445011334,0.1307726884,-0.1964870772,-0.5667847669,-0.2846439415,0.1856435918,0.4134181222,0.5679538146,0.2654446674,0.2432797631,0.3416356086,0.0180904059,-0.0633533739,-0.7159380007,0.2723396429,0.0736156141,0.1908532201,0.4049710825,-0.2826764039,0.5223182014,0.4003298594,0.3469100188,0.1668954602,0.0323759966,0.244063894,0.0959757506,-0.1175875983,-0.096994536,-0.0507159954,0.0657797222,-0.8013670834,-0.0458977599,0.433538539,0.7026646995,0.5138709967,0.5661779794,0.2641172005,0.0895171112,0.3479369579,0.1495860186,-0.1442592548,-0.57249142,0.1306401599,16.2306484646,0.7327472818,-0.2794581504,-0.4480484771,0.38913041,0.4116626936,-0.129222511,0.5589963797,0.798921873,0.2934286164,-0.0643360495,0.40706087,0.3811670021,-0.4584739133,0.0993618419,-0.1614863159,0.4114208313,-1.0231314899,1.3976079724,0.0470376563,-0.2827131429,-0.0674811282,0.3026576638,0.4269414479,0.2127360083,0.4738136695,0.1403983784,0.2978884065,0.7909162084,0.329277119,0.2616400584,0.4922951305,0.0343963483,-0.0391476383,-0.1124739601,-0.1270458571,-0.6133839422,0.0102374447,-0.302907191,0.3277821768,0.3180696739,1.5757240898,1.6702925114,0.1592355524,0.6360346843,0.2839885673,0.2474924657,1.0730250228,-1.9572008688,-0.9742320159,-0.548583591,0.3463441365,-1.4282409968,-0.1327416932,1.6597583649,0.1766904043
biasActivation=1,1,1
[BASIC:ACTIVATION]
"org.encog.engine.network.activation.ActivationTANH"
"org.encog.engine.network.activation.ActivationTANH"
"org.encog.engine.network.activation.ActivationTANH"
