encog,BasicNetwork,java,3.3.0,1,1449142003006
[BASIC]
[BASIC:PARAMS]
[BASIC:NETWORK]
beginTraining=0
connectionLimit=0
contextTargetOffset=0,0,0
contextTargetSize=0,0,0
endTraining=2
hasContext=f
inputCount=16
layerCounts=2,13,17
layerFeedCounts=1,12,16
layerContextCount=0,0,0
layerIndex=0,2,15
output=0.0358100091,1,0.6305946103,0.3637493681,-0.6196917986,-0.2681767326,0.1861795265,0.0958513717,0.6489139048,0.2714443207,-0.1662183044,-0.7122398109,0.4131948211,0.1137863101,1,0,0,0,0,1,1,0,0,0,0,0,0,0,0,0,1,1
outputCount=1
weightIndex=0,13,217
weights=0.3570020454,0.3413054755,0.5733904618,0.0918734428,-0.1219274477,0.4705067495,-0.0964874038,0.3910537339,0.2720834412,0.3128762154,0.1399862121,0.1977958817,0.1883002808,0.414199155,0.4915504179,0.0807447429,0.2181666611,0.262192792,-0.042565612,-0.0065070243,-0.0132672116,-0.0777660832,-0.2308284344,0.0493284894,0.0755329748,-0.5762604488,0.4558328684,-0.0323335009,0.3301818997,0.1925936007,0.4274671553,0.2081119836,-0.0328073388,0.0646045182,0.1931555965,0.4966323577,0.686527707,0.3002661335,-0.1902341363,-0.2189862372,-0.0343864194,0.1316799858,-0.1179190106,0.1996932235,-0.0186458691,-0.1408916599,-0.1676960379,-0.0384003544,-0.1003510656,0.5909947068,0.2864274487,-0.0136544829,0.3710501625,0.2499982689,0.4245832264,0.2286007885,-0.1415619596,0.3814349048,-0.0163726414,0.349333882,-0.1540189848,-0.1154053061,-0.1319379939,-0.9499622768,0.0512802189,-0.0314406304,-0.3185971044,-0.7423589957,-0.0419557869,0.0838915027,0.0635814468,0.2095541634,-0.2858125814,0.2390214774,1.258354827,0.0020438488,-0.0466417707,0.0306304133,0.3109015136,-0.4733467022,0.1565127577,0.1700066592,1.0142537713,0.0100367369,0.8287975697,-0.0889482037,0.1033598704,-0.0233114288,0.0308959848,-0.5913731953,0.5843727064,-0.7694438712,0.7275750992,14.6761775686,-0.5934977719,0.4926099016,0.3449916669,-0.1710267604,0.1136664987,0.4826720564,-0.0106792928,0.3499958579,0.5232009933,0.2091408071,0.2031600451,-0.323813645,-0.0098578349,-0.0435721998,-0.325318996,-0.1955680445,0.3027772121,-0.0242065887,0.1448071123,-0.0254633099,-0.6107319456,0.4862601306,-0.235758175,1.2432281,0.2129532115,0.6623928343,0.3286508831,0.5149486892,1.4186272707,16.0517299044,0.6802786997,15.4492192997,-0.0394297721,0.2562927116,-0.3269990458,0.3301294773,0.2215707089,-0.4391941105,-0.0238151824,0.0450778193,0.2646202459,0.150089968,-0.3711765909,0.2918002414,0.0369071519,0.7129751843,0.1401294351,0.0344692463,0.302050534,0.2821413391,0.0549591269,-0.219336338,-0.1420406517,0.040849006,0.3169497139,0.3773464988,0.4965595964,0.3191814955,0.4531536379,0.3416781286,0.0456426217,-0.0176481939,0.4174802674,-0.0852186407,0.4607473562,-0.0569121072,-0.0307135507,0.2020280015,0.3859906063,0.4079180867,0.3231917009,-0.8782874322,0.1290061035,-0.5870664715,0.3531755618,0.4972073573,0.301377953,-0.0312285019,0.2805161699,0.1545887595,-0.3528250328,-0.11070867,-1.3137013804,0.0397506145,-1.191715897,-0.5795296291,-0.0985830995,-0.0982311738,-1.0636333606,0.213206956,0.5534464658,-0.1864504042,-0.0259265918,0.2389111203,0.0177752772,0.3079581437,0.1234897183,-0.031029914,0.7145780809,-1.0765793689,0.1599542451,-0.1423159624,-0.4105066092,0.1668813248,0.5175970459,-0.3348257539,0.0144713686,0.0408683182,0.1586162803,0.0268264586,-0.01074343,-0.060274003,-0.0193014889,0.0437781897,0.0669284855,0.4194531962,-0.0188227564,0.0763505155,0.0160088925,-0.4548393021,-0.1728508858,-0.1466337936,0.3319324632
biasActivation=1,1,1
[BASIC:ACTIVATION]
"org.encog.engine.network.activation.ActivationTANH"
"org.encog.engine.network.activation.ActivationTANH"
"org.encog.engine.network.activation.ActivationTANH"
