encog,BasicNetwork,java,3.3.0,1,1448953794523
[BASIC]
[BASIC:PARAMS]
[BASIC:NETWORK]
beginTraining=0
connectionLimit=0
contextTargetOffset=0,0,0
contextTargetSize=0,0,0
endTraining=2
hasContext=f
inputCount=16
layerCounts=2,13,17
layerFeedCounts=1,12,16
layerContextCount=0,0,0
layerIndex=0,2,15
output=0.0246164303,1,0.7407723714,0.8687522589,0.0576187637,0.8311830796,0.0158189664,0.688304686,0.2558432188,0.7784472237,-0.568394393,-0.0763583761,-0.2084089096,-0.4670644012,1,0,0,0,0,1,1,0,0,0,0,0,0,0,0,0,0,1
outputCount=1
weightIndex=0,13,217
weights=0.4124589202,0.440332518,0.0365625804,-0.1247197631,0.4666969299,0.0829452195,-0.1627985726,-0.1220285279,-0.0912872173,-0.0551070922,0.0891879411,0.1997454363,-0.4339424246,0.136357378,0.4459805114,0.4422775325,0.1603664092,0.4970450405,0.3830722508,0.166452023,0.3690631792,0.2182250362,0.088126757,-0.141000559,0.304344118,0.4425341887,-0.1858914935,-0.1434689632,0.0378471526,0.0720715259,0.4932107781,-0.0023137152,0.5737634627,0.5438594924,0.2743823324,0.4694910541,0.3466890144,0.4011605206,0.0471005762,-0.2061001229,16.0448190069,0.9418701446,-0.9437319145,-0.3371044727,-0.1159539671,0.3411404335,0.5840963912,0.0581554028,0.2493520107,-0.6834630169,0.2434967397,0.3642262965,0.0534833129,-0.6027255545,-0.091916068,-2.5133449449,4.7239068575,0.3831493397,17.8944645296,0.3879451473,-3.5403255439,0.2622432796,3.0227042084,-0.3600269552,0.4538857504,0.1681389268,-0.3727970767,0.2580068196,0.310395591,0.1013512639,1.6750183953,0.1542070355,0.9374626517,-0.3036394975,0.1687314007,-0.7742936861,0.8213593088,0.1535652851,0.0406838517,0.5796932181,0.7802045012,0.1212257826,0.3450691932,0.1830086384,0.1909027306,0.0577039437,0.1298726008,0.4393335136,0.5539756673,0.4848014911,-0.2486050514,-0.0234925994,-0.2477448896,-0.057399756,0.1252140846,0.1203455058,0.3422659634,-0.1717562585,0.1263558581,-0.1096464235,-0.2169138753,-0.288509955,0.3483013199,0.368034417,0.678350128,0.1700953987,-0.0605169811,0.7850598538,-1.7466425801,15.587719532,0.1006501704,0.7331398504,0.7323024458,-0.04867063,0.1283912667,0.5189244659,0.0702368854,0.6985371761,0.2143252446,0.3876341709,0.1147999978,0.1031934945,0.6927142455,0.3295982599,0.1889222569,-0.0850895749,0.1365838659,1.5178274985,-0.1680452593,0.2264562701,0.9080445446,-0.240778782,-0.1397991805,16.7438101102,18.1589089994,3.660474578,-0.1931826722,0.4977243001,0.7386444413,0.0688407121,0.3132994809,0.7115450378,-4.566367782,3.9061780735,-5.7907072013,1.2936382377,3.1524480669,17.1502383419,0.7368759159,-0.3392282571,0.4387013792,0.2929135718,0.0306170076,-0.2566029818,-0.0409502489,0.080579992,0.434978171,1.5243034717,0.064924676,0.2460030991,-0.0533663872,-1.4304457859,0.7584753864,0.6260538382,0.3931908265,-0.3475945047,0.1685413235,-1.3171001208,-0.5212238629,-2.064833178,0.8949974968,-0.8335311007,-0.3410768471,0.0718600593,-0.7097272698,1.8276561875,2.0540137691,3.5301371021,-0.7066385718,-3.0568551211,-1.7914744398,1.825366255,-0.1379736986,-0.0486198165,-0.1295419918,0.2755670151,0.6313437219,0.0963559367,0.4534360242,0.1364106919,-0.2270505584,0.1141083923,0.5849421748,-0.4708683071,0.4898060098,-0.5802530902,1.7038606713,-0.005771484,-0.2757008489,-0.7612993929,0.508935964,0.1876688516,0.3901918575,0.250211911,0.2141766933,0.2099243533,0.3397603511,0.2704624058,-0.3996186979,0.4822817632,0.2517788602,0.0766463509,0.2518108197,-0.2079077783,0.2649993001,0.0256511703,-0.9304100906
biasActivation=1,1,1
[BASIC:ACTIVATION]
"org.encog.engine.network.activation.ActivationTANH"
"org.encog.engine.network.activation.ActivationTANH"
"org.encog.engine.network.activation.ActivationTANH"
